TRT-8502-EntropyCalibration2
images: 3b66eddc
/model.0/conv/Conv_output_0: 3ec817f6
(Unnamed Layer* 1) [Constant]_output: 3e810a14
/model.23/Split_output_0: 3d810a14
/model.23/Split_output_1: 3e010a14
/model.23/Split_output_2: 3e810a14
/model.0/act/Sigmoid_output_0: 3c010a14
/model.0/act/Mul_output_0: 3e90ad28
/model.1/conv/Conv_output_0: 401f8c11
/model.1/act/Sigmoid_output_0: 3c010a14
/model.1/act/Mul_output_0: 3f133521
/model.2/cv1/conv/Conv_output_0: 3f6d9225
/model.2/cv1/act/Sigmoid_output_0: 3c010a14
/model.2/cv1/act/Mul_output_0: 3ea4b9e8
/model.2/Split_output_0: 3ea1b18e
/model.2/Split_output_1: 3eba06f5
/model.2/m.0/cv1/conv/Conv_output_0: 3e3fc297
/model.2/m.0/cv1/act/Sigmoid_output_0: 3bfba274
/model.2/m.0/cv1/act/Mul_output_0: 3c1e680d
/model.2/m.0/cv2/conv/Conv_output_0: 3e93e189
/model.2/m.0/cv2/act/Sigmoid_output_0: 3c010a14
/model.2/m.0/cv2/act/Mul_output_0: 3dbe16ab
/model.2/m.0/Add_output_0: 3eafca67
/model.2/Concat_output_0: 3eafc0ff
/model.2/cv2/conv/Conv_output_0: 3f03fe00
/model.2/cv2/act/Sigmoid_output_0: 3c010a14
/model.2/cv2/act/Mul_output_0: 3e0fafe7
/model.3/conv/Conv_output_0: 3e00215b
/model.3/act/Sigmoid_output_0: 3c053a5c
/model.3/act/Mul_output_0: 3d92007f
/model.4/cv1/conv/Conv_output_0: 3da022f6
/model.4/cv1/act/Sigmoid_output_0: 3c01083a
/model.4/cv1/act/Mul_output_0: 3d67c2ed
/model.4/Split_output_0: 3d68393b
/model.4/Split_output_1: 3cbe711f
/model.4/m.0/cv1/conv/Conv_output_0: 3cfaa889
/model.4/m.0/cv1/act/Sigmoid_output_0: 3bfcd41a
/model.4/m.0/cv1/act/Mul_output_0: 3ce44c32
/model.4/m.0/cv2/conv/Conv_output_0: 3d59380b
/model.4/m.0/cv2/act/Sigmoid_output_0: 3c03d234
/model.4/m.0/cv2/act/Mul_output_0: 3d3b9f0a
/model.4/m.0/Add_output_0: 3d6a1383
/model.4/Concat_output_0: 3d68393b
/model.4/cv2/conv/Conv_output_0: 3da5cb86
/model.4/cv2/act/Sigmoid_output_0: 3c000319
/model.4/cv2/act/Mul_output_0: 3c8fdc3b
/model.5/conv/Conv_output_0: 3d969914
/model.5/act/Sigmoid_output_0: 3c00f85c
/model.5/act/Mul_output_0: 3d00104c
/model.6/cv1/conv/Conv_output_0: 3e0a2a74
/model.6/cv1/act/Sigmoid_output_0: 3c00f8ee
/model.6/cv1/act/Mul_output_0: 3d10051d
/model.6/Split_output_0: 3d0fb15e
/model.6/Split_output_1: 3d0119b2
/model.6/m.0/cv1/conv/Conv_output_0: 3d1fc6d6
/model.6/m.0/cv2/conv/Conv_output_0: 3d9bca12
/model.6/m.0/cv1/act/Sigmoid_output_0: 3bff9662
/model.6/m.0/cv2/act/Sigmoid_output_0: 3c0179e3
/model.6/m.0/cv1/act/Mul_output_0: 3cc016df
/model.6/m.0/cv2/act/Mul_output_0: 3d24d42d
/model.6/m.0/m/m.0/cv1/conv/Conv_output_0: 3d41e3f5
/model.6/m.0/m/m.0/cv1/act/Sigmoid_output_0: 3bffbbd0
/model.6/m.0/m/m.0/cv1/act/Mul_output_0: 3cb0ef4e
/model.6/m.0/m/m.0/cv2/conv/Conv_output_0: 3d8f4a39
/model.6/m.0/m/m.0/cv2/act/Sigmoid_output_0: 3c01091b
/model.6/m.0/m/m.0/cv2/act/Mul_output_0: 3d10b954
/model.6/m.0/m/m.0/Add_output_0: 3dbf5ada
/model.6/m.0/m/m.1/cv1/conv/Conv_output_0: 3d39f0ad
/model.6/m.0/m/m.1/cv1/act/Sigmoid_output_0: 3c02a94f
/model.6/m.0/m/m.1/cv1/act/Mul_output_0: 3c99d6b2
/model.6/m.0/m/m.1/cv2/conv/Conv_output_0: 3d8936f2
/model.6/m.0/m/m.1/cv2/act/Sigmoid_output_0: 3c086b46
/model.6/m.0/m/m.1/cv2/act/Mul_output_0: 3d413fea
/model.6/m.0/m/m.1/Add_output_0: 3deb828d
/model.6/m.0/Concat_output_0: 3d69f539
/model.6/m.0/cv3/conv/Conv_output_0: 3da59f5d
/model.6/m.0/cv3/act/Sigmoid_output_0: 3c0109cc
/model.6/m.0/cv3/act/Mul_output_0: 3cb1561a
/model.6/Concat_output_0: 3ce6a10e
/model.6/cv2/conv/Conv_output_0: 3d9004bb
/model.6/cv2/act/Sigmoid_output_0: 3c005e91
/model.6/cv2/act/Mul_output_0: 3cea6f80
/model.7/conv/Conv_output_0: 3da0fabb
/model.7/act/Sigmoid_output_0: 3c00a3d4
/model.7/act/Mul_output_0: 3ce87fc4
/model.8/cv1/conv/Conv_output_0: 3da0b342
/model.8/cv1/act/Sigmoid_output_0: 3c0105ae
/model.8/cv1/act/Mul_output_0: 3d3fdb1e
/model.8/Split_output_0: 3d661293
/model.8/Split_output_1: 3cd138fa
/model.8/m.0/cv1/conv/Conv_output_0: 3d3342ca
/model.8/m.0/cv2/conv/Conv_output_0: 3d8fadae
/model.8/m.0/cv1/act/Sigmoid_output_0: 3bfcfcdd
/model.8/m.0/cv2/act/Sigmoid_output_0: 3c004d3b
/model.8/m.0/cv1/act/Mul_output_0: 3ca5b6ca
/model.8/m.0/cv2/act/Mul_output_0: 3d000ff9
/model.8/m.0/m/m.0/cv1/conv/Conv_output_0: 3d4a0cff
/model.8/m.0/m/m.0/cv1/act/Sigmoid_output_0: 3c017e2c
/model.8/m.0/m/m.0/cv1/act/Mul_output_0: 3cb0934c
/model.8/m.0/m/m.0/cv2/conv/Conv_output_0: 3d8eecf5
/model.8/m.0/m/m.0/cv2/act/Sigmoid_output_0: 3c00e529
/model.8/m.0/m/m.0/cv2/act/Mul_output_0: 3d2486a9
/model.8/m.0/m/m.0/Add_output_0: 3d8f3e9a
/model.8/m.0/m/m.1/cv1/conv/Conv_output_0: 3d55c12e
/model.8/m.0/m/m.1/cv1/act/Sigmoid_output_0: 3c03898c
/model.8/m.0/m/m.1/cv1/act/Mul_output_0: 3d008e0d
/model.8/m.0/m/m.1/cv2/conv/Conv_output_0: 3da09632
/model.8/m.0/m/m.1/cv2/act/Sigmoid_output_0: 3c010850
/model.8/m.0/m/m.1/cv2/act/Mul_output_0: 3d92253a
/model.8/m.0/m/m.1/Add_output_0: 3dd5899b
/model.8/m.0/Concat_output_0: 3d92ad56
/model.8/m.0/cv3/conv/Conv_output_0: 3d5eae51
/model.8/m.0/cv3/act/Sigmoid_output_0: 3c01ed72
/model.8/m.0/cv3/act/Mul_output_0: 3d018ae2
/model.8/Concat_output_0: 3d3fdb1e
/model.8/cv2/conv/Conv_output_0: 3d9f1876
/model.8/cv2/act/Sigmoid_output_0: 3c00d52a
/model.8/cv2/act/Mul_output_0: 3d109293
/model.9/cv1/conv/Conv_output_0: 3d4d0a81
/model.9/cv1/act/Sigmoid_output_0: 3c00a4ac
/model.9/cv1/act/Mul_output_0: 3d4437b2
/model.9/m/MaxPool_output_0: 3d4437b2
/model.9/m_1/MaxPool_output_0: 3d4437b2
/model.9/m_2/MaxPool_output_0: 3d4437b2
/model.9/Concat_output_0: 3d4f2362
/model.9/cv2/conv/Conv_output_0: 3d9d6679
/model.9/cv2/act/Sigmoid_output_0: 3bfcac81
/model.9/cv2/act/Mul_output_0: 3ca4d268
/model.10/cv1/conv/Conv_output_0: 3dee7561
/model.10/cv1/act/Sigmoid_output_0: 3c010a11
/model.10/cv1/act/Mul_output_0: 3d699a96
/model.10/Split_output_0: 3d64a567
/model.10/Split_output_1: 3d686f1f
/model.10/m/m.0/attn/qkv/conv/Conv_output_0: 3ded6fa2
/model.10/m/m.0/attn/Reshape_output_0: 3ded6fa2
/model.10/m/m.0/attn/Split_output_0: 3d66ad73
/model.10/m/m.0/attn/Split_output_1: 3ddb0472
/model.10/m/m.0/attn/Split_output_2: 3e076b12
/model.10/m/m.0/attn/Transpose_output_0: 3d66ad73
/model.10/m/m.0/attn/Reshape_2_output_0: 3e076b12
/model.10/m/m.0/attn/MatMul_output_0: 3fdba311
/model.10/m/m.0/attn/pe/conv/Conv_output_0: 3da3c03b
(Unnamed Layer* 221) [Shuffle]_output: 3ab67d3d
/model.10/m/m.0/attn/Mul_1_output_0: 3e9b4e8a
(Unnamed Layer* 223) [Softmax]_output: 3a4ca207
/model.10/m/m.0/attn/Transpose_1_output_0: 3a4ca207
/model.10/m/m.0/attn/MatMul_1_output_0: 3de83ba4
/model.10/m/m.0/attn/Reshape_1_output_0: 3de83ba4
/model.10/m/m.0/attn/Add_output_0: 3d88e4f1
/model.10/m/m.0/attn/proj/conv/Conv_output_0: 3d47177f
/model.10/m/m.0/Add_output_0: 3dc85894
/model.10/m/m.0/ffn/ffn.0/conv/Conv_output_0: 3dac8dbe
/model.10/m/m.0/ffn/ffn.0/act/Sigmoid_output_0: 3c081499
/model.10/m/m.0/ffn/ffn.0/act/Mul_output_0: 3cb22a96
/model.10/m/m.0/ffn/ffn.1/conv/Conv_output_0: 3d731495
/model.10/m/m.0/Add_1_output_0: 3de43868
/model.10/Concat_output_0: 3d91f65a
/model.10/cv2/conv/Conv_output_0: 3dc6e889
/model.10/cv2/act/Sigmoid_output_0: 3c022db1
/model.10/cv2/act/Mul_output_0: 3c996ac4
/model.11/Resize_output_0: 3c996ac4
/model.12/Concat_output_0: 3cc3543a
/model.13/cv1/conv/Conv_output_0: 3d4642bf
/model.13/cv1/act/Sigmoid_output_0: 3bfea3f5
/model.13/cv1/act/Mul_output_0: 3cb1764d
/model.13/Split_output_0: 3cd07dfb
/model.13/Split_output_1: 3c804e76
/model.13/m.0/cv1/conv/Conv_output_0: 3d18f3b1
/model.13/m.0/cv1/act/Sigmoid_output_0: 3bfa4e43
/model.13/m.0/cv1/act/Mul_output_0: 3c7fea39
/model.13/m.0/cv2/conv/Conv_output_0: 3d667b4b
/model.13/m.0/cv2/act/Sigmoid_output_0: 3bff6e99
/model.13/m.0/cv2/act/Mul_output_0: 3d006cd6
/model.13/m.0/Add_output_0: 3d30cb5b
/model.13/Concat_output_0: 3d0150c4
/model.13/cv2/conv/Conv_output_0: 3d39f064
/model.13/cv2/act/Sigmoid_output_0: 3bf2d03c
/model.13/cv2/act/Mul_output_0: 3c51dc4d
/model.14/Resize_output_0: 3c51dc4d
/model.15/Concat_output_0: 3c900dc5
/model.16/cv1/conv/Conv_output_0: 3d5d6314
/model.16/cv1/act/Sigmoid_output_0: 3bfbb2ab
/model.16/cv1/act/Mul_output_0: 3cb12965
/model.16/Split_output_0: 3cc04b1a
/model.16/Split_output_1: 3c996c81
/model.16/m.0/cv1/conv/Conv_output_0: 3d4e544e
/model.16/m.0/cv1/act/Sigmoid_output_0: 3c00d5c4
/model.16/m.0/cv1/act/Mul_output_0: 3d0f47d4
/model.16/m.0/cv2/conv/Conv_output_0: 3dbd2973
/model.16/m.0/cv2/act/Sigmoid_output_0: 3c006a8d
/model.16/m.0/cv2/act/Mul_output_0: 3d0110dc
/model.16/m.0/Add_output_0: 3d65a08c
/model.16/Concat_output_0: 3d106f4c
/model.16/cv2/conv/Conv_output_0: 3d7bb61b
/model.16/cv2/act/Sigmoid_output_0: 3c03e0cb
/model.16/cv2/act/Mul_output_0: 3ce51cd9
/model.17/conv/Conv_output_0: 3d81e473
/model.23/cv2.0/cv2.0.0/conv/Conv_output_0: 3d951730
/model.23/cv3.0/cv3.0.0/cv3.0.0.0/conv/Conv_output_0: 3db5d055
/model.17/act/Sigmoid_output_0: 3c044cf0
/model.23/cv2.0/cv2.0.0/act/Sigmoid_output_0: 3c005905
/model.23/cv3.0/cv3.0.0/cv3.0.0.0/act/Sigmoid_output_0: 3bffa5c2
/model.17/act/Mul_output_0: 3c993b20
/model.23/cv2.0/cv2.0.0/act/Mul_output_0: 3ca5047e
/model.23/cv3.0/cv3.0.0/cv3.0.0.0/act/Mul_output_0: 3d408bfd
/model.18/Concat_output_0: 3c5176e4
/model.23/cv2.0/cv2.0.1/conv/Conv_output_0: 3e77f0d9
/model.23/cv3.0/cv3.0.0/cv3.0.0.1/conv/Conv_output_0: 3d6fb634
/model.19/cv1/conv/Conv_output_0: 3d633582
/model.23/cv2.0/cv2.0.1/act/Sigmoid_output_0: 3c010a14
/model.23/cv3.0/cv3.0.0/cv3.0.0.1/act/Sigmoid_output_0: 3c00e45f
/model.19/cv1/act/Sigmoid_output_0: 3c00f120
/model.23/cv2.0/cv2.0.1/act/Mul_output_0: 3e189d59
/model.23/cv3.0/cv3.0.0/cv3.0.0.1/act/Mul_output_0: 3d000581
/model.19/cv1/act/Mul_output_0: 3cc110d5
/model.23/cv2.0/cv2.0.2/Conv_output_0: 3dd24682
/model.23/cv3.0/cv3.0.1/cv3.0.1.0/conv/Conv_output_0: 3da2e555
/model.19/Split_output_0: 3cd241df
/model.19/Split_output_1: 3c723b60
/model.23/cv3.0/cv3.0.1/cv3.0.1.0/act/Sigmoid_output_0: 3c010a04
/model.19/m.0/cv1/conv/Conv_output_0: 3d56a93e
/model.23/cv3.0/cv3.0.1/cv3.0.1.0/act/Mul_output_0: 3d68697f
/model.19/m.0/cv1/act/Sigmoid_output_0: 3c00373f
/model.23/cv3.0/cv3.0.1/cv3.0.1.1/conv/Conv_output_0: 3d993ef0
/model.19/m.0/cv1/act/Mul_output_0: 3cbf241c
/model.23/cv3.0/cv3.0.1/cv3.0.1.1/act/Sigmoid_output_0: 3c00d998
/model.19/m.0/cv2/conv/Conv_output_0: 3d676695
/model.23/cv3.0/cv3.0.1/cv3.0.1.1/act/Mul_output_0: 3d4366ca
/model.19/m.0/cv2/act/Sigmoid_output_0: 3c018206
/model.23/cv3.0/cv3.0.2/Conv_output_0: 3e7a3995
/model.19/m.0/cv2/act/Mul_output_0: 3d000caa
/model.23/Concat_output_0: 3e697a76
/model.19/m.0/Add_output_0: 3d508812
/model.19/Concat_output_0: 3cd298bb
/model.19/cv2/conv/Conv_output_0: 3d4a70b0
/model.19/cv2/act/Sigmoid_output_0: 3c007d45
/model.23/Range_output_0: 3f1f4871
(Unnamed Layer* 362) [Shuffle]_output: 3c010a14
/model.23/Range_1_output_0: 3f1f4871
(Unnamed Layer* 371) [Shuffle]_output: 3c010a14
/model.19/cv2/act/Mul_output_0: 3cc055ab
/model.23/Reshape_output_0: 3e697a76
(Unnamed Layer* 376) [Shuffle]_output: 3b810a14
/model.23/Add_output_0: 3f204a85
(Unnamed Layer* 378) [Shuffle]_output: 3b810a14
/model.23/Add_1_output_0: 3f204a85
/model.20/conv/Conv_output_0: 3d94bbc9
/model.23/cv2.1/cv2.1.0/conv/Conv_output_0: 3dbef6e1
/model.23/cv3.1/cv3.1.0/cv3.1.0.0/conv/Conv_output_0: 3d8d98f3
(Unnamed Layer* 385) [Constant]_output: 0
(Unnamed Layer* 386) [Shuffle]_output: 0
/model.23/ConstantOfShape_output_0: 0
/model.23/Reshape_5_output_0: 3f204a85
/model.23/Reshape_6_output_0: 3f204a85
/model.20/act/Sigmoid_output_0: 3c01091f
/model.23/cv2.1/cv2.1.0/act/Sigmoid_output_0: 3c00f17d
/model.23/cv3.1/cv3.1.0/cv3.1.0.0/act/Sigmoid_output_0: 3c00f4e3
(Unnamed Layer* 396) [Shuffle]_output: 3d810a14
/model.23/Add_2_output_0: 3d810a14
/model.20/act/Mul_output_0: 3cc00d51
/model.23/cv2.1/cv2.1.0/act/Mul_output_0: 3d240bd3
/model.23/cv3.1/cv3.1.0/cv3.1.0.0/act/Mul_output_0: 3d3f4c15
/model.23/Expand_output_0: 3f204a85
/model.23/Expand_1_output_0: 3f204a85
/model.21/Concat_output_0: 3c9a87c1
/model.23/cv2.1/cv2.1.1/conv/Conv_output_0: 3e81b5c3
/model.23/cv3.1/cv3.1.0/cv3.1.0.1/conv/Conv_output_0: 3d39c721
/model.23/Unsqueeze_3_output_0: 3f204a85
/model.23/Unsqueeze_4_output_0: 3f204a85
/model.22/cv1/conv/Conv_output_0: 3d820b70
/model.23/cv2.1/cv2.1.1/act/Sigmoid_output_0: 3c010a14
/model.23/cv3.1/cv3.1.0/cv3.1.0.1/act/Sigmoid_output_0: 3bffe69b
/model.23/Concat_10_output_0: 3f204a85
/model.22/cv1/act/Sigmoid_output_0: 3c0102bd
/model.23/cv2.1/cv2.1.1/act/Mul_output_0: 3e16bc86
/model.23/cv3.1/cv3.1.0/cv3.1.0.1/act/Mul_output_0: 3cd23788
/model.23/Reshape_7_output_0: 3f204a85
/model.22/cv1/act/Mul_output_0: 3cbff19f
/model.23/cv2.1/cv2.1.2/Conv_output_0: 3dc82b8d
/model.23/cv3.1/cv3.1.1/cv3.1.1.0/conv/Conv_output_0: 3d7d8c69
/model.22/Split_output_0: 3ca4a7e0
/model.22/Split_output_1: 3cb0f615
/model.23/cv3.1/cv3.1.1/cv3.1.1.0/act/Sigmoid_output_0: 3c0307aa
/model.22/m.0/cv1/conv/Conv_output_0: 3cfd0bb5
/model.22/m.0/cv2/conv/Conv_output_0: 3d8bc691
/model.23/cv3.1/cv3.1.1/cv3.1.1.0/act/Mul_output_0: 3d3f0f54
/model.22/m.0/cv1/act/Sigmoid_output_0: 3becb351
/model.22/m.0/cv2/act/Sigmoid_output_0: 3c005d35
/model.23/cv3.1/cv3.1.1/cv3.1.1.1/conv/Conv_output_0: 3d5c252a
/model.22/m.0/cv1/act/Mul_output_0: 3c1f0c3c
/model.22/m.0/cv2/act/Mul_output_0: 3cd221aa
/model.23/cv3.1/cv3.1.1/cv3.1.1.1/act/Sigmoid_output_0: 3c00dfe2
/model.22/m.0/m/m.0/cv1/conv/Conv_output_0: 3d2e2d0e
/model.23/cv3.1/cv3.1.1/cv3.1.1.1/act/Mul_output_0: 3d24636f
/model.22/m.0/m/m.0/cv1/act/Sigmoid_output_0: 3c025f95
/model.23/cv3.1/cv3.1.2/Conv_output_0: 3e589fba
/model.22/m.0/m/m.0/cv1/act/Mul_output_0: 3c90d2bf
/model.23/Concat_1_output_0: 3e4a2289
/model.22/m.0/m/m.0/cv2/conv/Conv_output_0: 3d436606
/model.23/Reshape_1_output_0: 3e4a2289
/model.22/m.0/m/m.0/cv2/act/Sigmoid_output_0: 3c00e766
/model.22/m.0/m/m.0/cv2/act/Mul_output_0: 3d01409f
/model.22/m.0/m/m.0/Add_output_0: 3d181e9e
/model.23/Range_2_output_0: 3e9d4449
(Unnamed Layer* 493) [Shuffle]_output: 3c010a14
/model.23/Range_3_output_0: 3e9d4449
(Unnamed Layer* 502) [Shuffle]_output: 3c010a14
/model.22/m.0/m/m.1/cv1/conv/Conv_output_0: 3d644166
(Unnamed Layer* 505) [Shuffle]_output: 3b810a14
/model.23/Add_3_output_0: 3e9f4871
(Unnamed Layer* 507) [Shuffle]_output: 3b810a14
/model.23/Add_4_output_0: 3e9f4871
/model.22/m.0/m/m.1/cv1/act/Sigmoid_output_0: 3c000132
(Unnamed Layer* 511) [Constant]_output: 0
(Unnamed Layer* 512) [Shuffle]_output: 0
/model.23/ConstantOfShape_1_output_0: 0
/model.23/Reshape_10_output_0: 3e9f4871
/model.23/Reshape_11_output_0: 3e9f4871
/model.22/m.0/m/m.1/cv1/act/Mul_output_0: 3c730367
(Unnamed Layer* 520) [Shuffle]_output: 3e010a14
/model.23/Add_5_output_0: 3e010a14
/model.22/m.0/m/m.1/cv2/conv/Conv_output_0: 3dc148d9
/model.23/Expand_2_output_0: 3e9f4871
/model.23/Expand_3_output_0: 3e9f4871
/model.22/m.0/m/m.1/cv2/act/Sigmoid_output_0: 3c0109c5
/model.23/Unsqueeze_6_output_0: 3e9f4871
/model.23/Unsqueeze_7_output_0: 3e9f4871
/model.22/m.0/m/m.1/cv2/act/Mul_output_0: 3d901198
/model.23/Concat_15_output_0: 3e9f4871
/model.22/m.0/m/m.1/Add_output_0: 3db2e902
/model.23/Reshape_12_output_0: 3e9f4871
/model.22/m.0/Concat_output_0: 3d8feb64
/model.22/m.0/cv3/conv/Conv_output_0: 3d9e39ad
/model.22/m.0/cv3/act/Sigmoid_output_0: 3c00f440
/model.22/m.0/cv3/act/Mul_output_0: 3d2479f9
/model.22/Concat_output_0: 3ce5fb12
/model.22/cv2/conv/Conv_output_0: 3d92e177
/model.22/cv2/act/Sigmoid_output_0: 3c05364a
/model.22/cv2/act/Mul_output_0: 3d001212
/model.23/cv2.2/cv2.2.0/conv/Conv_output_0: 3dbe3af4
/model.23/cv3.2/cv3.2.0/cv3.2.0.0/conv/Conv_output_0: 3d82169f
/model.23/cv2.2/cv2.2.0/act/Sigmoid_output_0: 3c03ec52
/model.23/cv3.2/cv3.2.0/cv3.2.0.0/act/Sigmoid_output_0: 3c0e4b66
/model.23/cv2.2/cv2.2.0/act/Mul_output_0: 3d40b598
/model.23/cv3.2/cv3.2.0/cv3.2.0.0/act/Mul_output_0: 3d40adf4
/model.23/cv2.2/cv2.2.1/conv/Conv_output_0: 3e587788
/model.23/cv3.2/cv3.2.0/cv3.2.0.1/conv/Conv_output_0: 3d35cfe2
/model.23/cv2.2/cv2.2.1/act/Sigmoid_output_0: 3c010a14
/model.23/cv3.2/cv3.2.0/cv3.2.0.1/act/Sigmoid_output_0: 3c072560
/model.23/cv2.2/cv2.2.1/act/Mul_output_0: 3e11d2dc
/model.23/cv3.2/cv3.2.0/cv3.2.0.1/act/Mul_output_0: 3cd17db6
/model.23/cv2.2/cv2.2.2/Conv_output_0: 3dbce622
/model.23/cv3.2/cv3.2.1/cv3.2.1.0/conv/Conv_output_0: 3d518405
/model.23/cv3.2/cv3.2.1/cv3.2.1.0/act/Sigmoid_output_0: 3c00dbe4
/model.23/cv3.2/cv3.2.1/cv3.2.1.0/act/Mul_output_0: 3d25c9bc
/model.23/cv3.2/cv3.2.1/cv3.2.1.1/conv/Conv_output_0: 3d7d2ca5
/model.23/cv3.2/cv3.2.1/cv3.2.1.1/act/Sigmoid_output_0: 3c013292
/model.23/cv3.2/cv3.2.1/cv3.2.1.1/act/Mul_output_0: 3d26e0b8
/model.23/cv3.2/cv3.2.2/Conv_output_0: 3e682074
/model.23/Concat_2_output_0: 3e3d25e1
/model.23/Reshape_2_output_0: 3e3d25e1
/model.23/Concat_6_output_0: 3e697a76
/model.23/Split_1_output_0: 3dd24682
/model.23/Split_1_output_1: 3e7a3995
/model.23/Range_4_output_0: 3e193bf8
(Unnamed Layer* 616) [Shuffle]_output: 3c010a14
/model.23/Range_5_output_0: 3e193bf8
(Unnamed Layer* 625) [Shuffle]_output: 3c010a14
/model.23/Sigmoid_output_0: 39ad373f
(Unnamed Layer* 629) [Shuffle]_output: 3b810a14
/model.23/Add_6_output_0: 3e1d4449
(Unnamed Layer* 631) [Shuffle]_output: 3b810a14
/model.23/Add_7_output_0: 3e1d4449
(Unnamed Layer* 636) [Constant]_output: 0
(Unnamed Layer* 637) [Shuffle]_output: 0
/model.23/ConstantOfShape_2_output_0: 0
/model.23/Reshape_15_output_0: 3e1d4449
/model.23/Reshape_16_output_0: 3e1d4449
(Unnamed Layer* 646) [Shuffle]_output: 3e810a14
/model.23/Add_8_output_0: 3e810a14
/model.23/Concat_23_output_0: 3e810a14
/model.23/dfl/Reshape_output_0: 3dd24682
/model.23/Expand_4_output_0: 3e1d4449
/model.23/Expand_5_output_0: 3e1d4449
/model.23/Transpose_1_output_0: 3e810a14
/model.23/dfl/Transpose_output_0: 3dd24682
/model.23/Unsqueeze_9_output_0: 3e1d4449
/model.23/Unsqueeze_10_output_0: 3e1d4449
(Unnamed Layer* 688) [Softmax]_output: 3bd7cc85
/model.23/Concat_20_output_0: 3e1d4449
/model.23/dfl/conv/Conv_output_0: 3de4392b
/model.23/Reshape_17_output_0: 3e1d4449
/model.23/dfl/Reshape_1_output_0: 3de4392b
/model.23/Concat_22_output_0: 3f204a85
/model.23/Slice_output_0: 3dd6d704
/model.23/Slice_1_output_0: 3df8d044
/model.23/Transpose_output_0: 3f204a85
/model.23/Unsqueeze_12_output_0: 3f204a85
/model.23/Sub_output_0: 3f1f9297
/model.23/Add_10_output_0: 3f216e48
/model.23/Add_11_output_0: 3fa078d3
/model.23/Sub_1_output_0: 3e61ca7d
(Unnamed Layer* 761) [Shuffle]_output: 3c810a14
/model.23/Div_1_output_0: 3f2078d3
/model.23/Concat_24_output_0: 3f2078d3
(Unnamed Layer* 767) [Shuffle]_output: 3e810a14
/model.23/Mul_5_output_0: 40a078d3
output0: 40a078d3
